unsigned char modelo_tflite[] = {
  0x20, 0x00, 0x00, 0x00, 0x54, 0x46, 0x4c, 0x33, 0x00, 0x00, 0x00, 0x00,
  0x14, 0x00, 0x20, 0x00, 0x1c, 0x00, 0x18, 0x00, 0x14, 0x00, 0x10, 0x00,
  0x0c, 0x00, 0x00, 0x00, 0x08, 0x00, 0x04, 0x00, 0x14, 0x00, 0x00, 0x00,
  0x1c, 0x00, 0x00, 0x00, 0x98, 0x00, 0x00, 0x00, 0xf0, 0x00, 0x00, 0x00,
  0xac, 0x07, 0x00, 0x00, 0xbc, 0x07, 0x00, 0x00, 0x64, 0x0e, 0x00, 0x00,
  0x03, 0x00, 0x00, 0x00, 0x01, 0x00, 0x00, 0x00, 0x10, 0x00, 0x00, 0x00,
  0x00, 0x00, 0x0a, 0x00, 0x10, 0x00, 0x0c, 0x00, 0x08, 0x00, 0x04, 0x00,
  0x0a, 0x00, 0x00, 0x00, 0x0c, 0x00, 0x00, 0x00, 0x1c, 0x00, 0x00, 0x00,
  0x3c, 0x00, 0x00, 0x00, 0x0f, 0x00, 0x00, 0x00, 0x73, 0x65, 0x72, 0x76,
  0x69, 0x6e, 0x67, 0x5f, 0x64, 0x65, 0x66, 0x61, 0x75, 0x6c, 0x74, 0x00,
  0x01, 0x00, 0x00, 0x00, 0x04, 0x00, 0x00, 0x00, 0x90, 0xff, 0xff, 0xff,
  0x09, 0x00, 0x00, 0x00, 0x04, 0x00, 0x00, 0x00, 0x09, 0x00, 0x00, 0x00,
  0x64, 0x65, 0x6e, 0x73, 0x65, 0x5f, 0x33, 0x31, 0x37, 0x00, 0x00, 0x00,
  0x01, 0x00, 0x00, 0x00, 0x04, 0x00, 0x00, 0x00, 0x0e, 0xf9, 0xff, 0xff,
  0x04, 0x00, 0x00, 0x00, 0x0f, 0x00, 0x00, 0x00, 0x64, 0x65, 0x6e, 0x73,
  0x65, 0x5f, 0x33, 0x31, 0x35, 0x5f, 0x69, 0x6e, 0x70, 0x75, 0x74, 0x00,
  0x02, 0x00, 0x00, 0x00, 0x34, 0x00, 0x00, 0x00, 0x04, 0x00, 0x00, 0x00,
  0xdc, 0xff, 0xff, 0xff, 0x0c, 0x00, 0x00, 0x00, 0x04, 0x00, 0x00, 0x00,
  0x13, 0x00, 0x00, 0x00, 0x43, 0x4f, 0x4e, 0x56, 0x45, 0x52, 0x53, 0x49,
  0x4f, 0x4e, 0x5f, 0x4d, 0x45, 0x54, 0x41, 0x44, 0x41, 0x54, 0x41, 0x00,
  0x08, 0x00, 0x0c, 0x00, 0x08, 0x00, 0x04, 0x00, 0x08, 0x00, 0x00, 0x00,
  0x0b, 0x00, 0x00, 0x00, 0x04, 0x00, 0x00, 0x00, 0x13, 0x00, 0x00, 0x00,
  0x6d, 0x69, 0x6e, 0x5f, 0x72, 0x75, 0x6e, 0x74, 0x69, 0x6d, 0x65, 0x5f,
  0x76, 0x65, 0x72, 0x73, 0x69, 0x6f, 0x6e, 0x00, 0x0d, 0x00, 0x00, 0x00,
  0xb8, 0x06, 0x00, 0x00, 0xac, 0x06, 0x00, 0x00, 0x74, 0x06, 0x00, 0x00,
  0x94, 0x05, 0x00, 0x00, 0x34, 0x05, 0x00, 0x00, 0x04, 0x02, 0x00, 0x00,
  0x54, 0x01, 0x00, 0x00, 0xa4, 0x00, 0x00, 0x00, 0x9c, 0x00, 0x00, 0x00,
  0x94, 0x00, 0x00, 0x00, 0x8c, 0x00, 0x00, 0x00, 0x6c, 0x00, 0x00, 0x00,
  0x04, 0x00, 0x00, 0x00, 0xbe, 0xf9, 0xff, 0xff, 0x04, 0x00, 0x00, 0x00,
  0x58, 0x00, 0x00, 0x00, 0x0c, 0x00, 0x00, 0x00, 0x08, 0x00, 0x0e, 0x00,
  0x08, 0x00, 0x04, 0x00, 0x08, 0x00, 0x00, 0x00, 0x10, 0x00, 0x00, 0x00,
  0x28, 0x00, 0x00, 0x00, 0x00, 0x00, 0x06, 0x00, 0x08, 0x00, 0x04, 0x00,
  0x06, 0x00, 0x00, 0x00, 0x04, 0x00, 0x00, 0x00, 0x01, 0x00, 0x00, 0x00,
  0xeb, 0x03, 0x00, 0x00, 0x00, 0x00, 0x0a, 0x00, 0x10, 0x00, 0x0c, 0x00,
  0x08, 0x00, 0x04, 0x00, 0x0a, 0x00, 0x00, 0x00, 0x01, 0x00, 0x00, 0x00,
  0x02, 0x00, 0x00, 0x00, 0x04, 0x00, 0x00, 0x00, 0x06, 0x00, 0x00, 0x00,
  0x32, 0x2e, 0x31, 0x35, 0x2e, 0x30, 0x00, 0x00, 0x22, 0xfa, 0xff, 0xff,
  0x04, 0x00, 0x00, 0x00, 0x10, 0x00, 0x00, 0x00, 0x31, 0x2e, 0x31, 0x34,
  0x2e, 0x30, 0x00, 0x00, 0x00, 0x00, 0x00, 0x00, 0x00, 0x00, 0x00, 0x00,
  0x00, 0xfa, 0xff, 0xff, 0x04, 0xfa, 0xff, 0xff, 0x08, 0xfa, 0xff, 0xff,
  0x4a, 0xfa, 0xff, 0xff, 0x04, 0x00, 0x00, 0x00, 0xa0, 0x00, 0x00, 0x00,
  0xd7, 0xd6, 0x32, 0x0f, 0xf8, 0x3a, 0xc7, 0x1d, 0xde, 0x03, 0x21, 0x14,
  0xe6, 0x1c, 0xe5, 0xed, 0x07, 0xef, 0x21, 0x00, 0xef, 0x0c, 0x01, 0xf2,
  0xdd, 0x03, 0xdd, 0x00, 0xfd, 0x3a, 0x11, 0xeb, 0xcc, 0x36, 0x16, 0xc6,
  0x1d, 0x0e, 0xb6, 0x19, 0xe1, 0xff, 0xed, 0xfc, 0xec, 0xe8, 0xfc, 0xf1,
  0x30, 0xf7, 0x0f, 0xe6, 0xdb, 0x08, 0xd0, 0x0c, 0x23, 0xda, 0x37, 0xdd,
  0xd6, 0x13, 0x81, 0x3f, 0xd4, 0xde, 0xf3, 0x37, 0xdf, 0xfd, 0xbd, 0x2a,
  0x24, 0x2d, 0x1d, 0xd3, 0xd7, 0x08, 0xde, 0x02, 0xde, 0xd9, 0x2e, 0xf4,
  0xec, 0x11, 0x2e, 0xca, 0x24, 0xf7, 0xd9, 0xdd, 0xe9, 0x01, 0x33, 0xb4,
  0xe5, 0xeb, 0x00, 0xde, 0x2c, 0x35, 0xdd, 0xe1, 0xe7, 0x07, 0x30, 0xea,
  0xf1, 0x08, 0xdf, 0x02, 0xfc, 0xff, 0x2e, 0xb2, 0x22, 0x09, 0x0b, 0x08,
  0x20, 0xe1, 0xed, 0xf7, 0xaf, 0x39, 0x19, 0x14, 0x22, 0xdb, 0xd6, 0x15,
  0x15, 0xe7, 0xc5, 0x39, 0x26, 0xc7, 0x12, 0x13, 0x25, 0xde, 0xe0, 0xf3,
  0x10, 0xda, 0x0d, 0xda, 0x11, 0xcd, 0x14, 0x16, 0xfb, 0x1b, 0xf1, 0xd6,
  0xba, 0x16, 0x24, 0x12, 0xf6, 0xfa, 0xff, 0xff, 0x04, 0x00, 0x00, 0x00,
  0xa0, 0x00, 0x00, 0x00, 0x0e, 0xf2, 0xff, 0xff, 0x5f, 0xf5, 0xff, 0xff,
  0x01, 0xf1, 0xff, 0xff, 0x00, 0x00, 0x00, 0x00, 0xd1, 0xf2, 0xff, 0xff,
  0x47, 0xff, 0xff, 0xff, 0x00, 0x00, 0x00, 0x00, 0xcd, 0xe1, 0xff, 0xff,
  0x62, 0x16, 0x00, 0x00, 0xa4, 0x02, 0x00, 0x00, 0x00, 0x00, 0x00, 0x00,
  0x00, 0x00, 0x00, 0x00, 0x55, 0xf3, 0xff, 0xff, 0xeb, 0x24, 0x00, 0x00,
  0x42, 0xfc, 0xff, 0xff, 0xd3, 0x00, 0x00, 0x00, 0x4c, 0xfc, 0xff, 0xff,
  0x04, 0x1e, 0x00, 0x00, 0xfa, 0xea, 0xff, 0xff, 0x00, 0x00, 0x00, 0x00,
  0x21, 0x0d, 0x00, 0x00, 0x97, 0x02, 0x00, 0x00, 0x00, 0x00, 0x00, 0x00,
  0xc3, 0x12, 0x00, 0x00, 0x00, 0x00, 0x00, 0x00, 0x44, 0xf3, 0xff, 0xff,
  0xbe, 0xf1, 0xff, 0xff, 0x6d, 0x1d, 0x00, 0x00, 0x4d, 0x19, 0x00, 0x00,
  0xe7, 0xe7, 0xff, 0xff, 0x5a, 0xff, 0xff, 0xff, 0x3e, 0xea, 0xff, 0xff,
  0x44, 0x17, 0x00, 0x00, 0x94, 0x08, 0x00, 0x00, 0xb4, 0xf1, 0xff, 0xff,
  0x61, 0xff, 0xff, 0xff, 0x00, 0x00, 0x00, 0x00, 0x79, 0xfd, 0xff, 0xff,
  0xf6, 0xfd, 0xff, 0xff, 0x46, 0xf6, 0xff, 0xff, 0xa2, 0xfb, 0xff, 0xff,
  0x04, 0x00, 0x00, 0x00, 0x20, 0x03, 0x00, 0x00, 0xf3, 0xfe, 0xfb, 0xfd,
  0x08, 0xf8, 0xfa, 0x1a, 0x37, 0xe0, 0x0d, 0xfa, 0x12, 0x20, 0x15, 0xd9,
  0xe8, 0xfd, 0x18, 0xfb, 0xfe, 0x0e, 0x06, 0x2b, 0xf6, 0x05, 0x05, 0x27,
  0x2c, 0x02, 0xff, 0x01, 0xf7, 0xcd, 0xfe, 0x03, 0x02, 0xf1, 0xff, 0xfd,
  0xfc, 0xf5, 0x00, 0x0c, 0x01, 0xf8, 0x0a, 0xfd, 0xf4, 0xcd, 0xfd, 0xfe,
  0x14, 0x32, 0x04, 0x0c, 0xfd, 0x1f, 0x05, 0x07, 0xff, 0xd4, 0xf7, 0xf8,
  0xf5, 0xfc, 0xe7, 0x2f, 0xfe, 0x09, 0xfe, 0xfd, 0x22, 0x13, 0x27, 0xfb,
  0x08, 0x09, 0x07, 0xfc, 0x0f, 0xfe, 0x16, 0x0b, 0x16, 0xf7, 0xf4, 0xfd,
  0xf8, 0xea, 0x04, 0xf9, 0xfb, 0xf9, 0x03, 0x12, 0x0b, 0xfb, 0x02, 0x06,
  0x22, 0xf7, 0x0d, 0xf1, 0xf8, 0xfd, 0x07, 0xf1, 0xf8, 0xff, 0x07, 0x16,
  0xf9, 0x0a, 0x09, 0x06, 0x0c, 0x0f, 0x0d, 0x1b, 0xf1, 0xff, 0xd8, 0xfd,
  0xd5, 0xf8, 0xf3, 0xfe, 0x23, 0x0e, 0xfe, 0xfd, 0x04, 0x12, 0xf2, 0xd6,
  0xe9, 0xff, 0x02, 0x0d, 0xf7, 0x04, 0x0b, 0x21, 0xf4, 0x19, 0xd6, 0x1f,
  0x23, 0xfc, 0xff, 0xd6, 0x10, 0x04, 0xec, 0xff, 0xf4, 0xd2, 0xfd, 0xe6,
  0x0f, 0x0f, 0x06, 0xfc, 0x05, 0xf4, 0xf3, 0x09, 0x9f, 0x07, 0x07, 0xfd,
  0x04, 0x9b, 0x0a, 0xf4, 0x0f, 0xb6, 0x07, 0x0b, 0x16, 0x9a, 0xf2, 0xa1,
  0xfc, 0x17, 0xfb, 0xbb, 0xd8, 0x09, 0xf6, 0x06, 0xd9, 0xe4, 0x09, 0x0c,
  0xfe, 0xff, 0x0e, 0xff, 0x03, 0xe2, 0x00, 0xfe, 0xf7, 0x09, 0xf2, 0xce,
  0x09, 0xe8, 0x00, 0xfb, 0xca, 0x14, 0xf1, 0xdf, 0xfb, 0x15, 0xdd, 0xf7,
  0x0c, 0x3b, 0x0c, 0x49, 0xf4, 0xac, 0xe4, 0x14, 0x21, 0xd4, 0x0e, 0xfd,
  0x0e, 0x08, 0xed, 0x07, 0xf9, 0x02, 0xfb, 0x00, 0x11, 0x23, 0x05, 0x05,
  0xf6, 0x00, 0xf5, 0x02, 0xf8, 0x3a, 0xf5, 0xf7, 0xf0, 0xfa, 0xda, 0xf3,
  0x22, 0x00, 0x01, 0xf1, 0x06, 0xcf, 0xf4, 0xb7, 0x02, 0x03, 0xff, 0x0c,
  0xb9, 0xfe, 0x03, 0x1b, 0x0b, 0x21, 0x01, 0xf2, 0xf9, 0xfd, 0xfe, 0x15,
  0xfd, 0x19, 0x07, 0xf5, 0x0b, 0xf7, 0xf4, 0x13, 0x08, 0xaf, 0xf7, 0x09,
  0x03, 0xc8, 0x00, 0xed, 0xe6, 0x9d, 0x15, 0x09, 0xf6, 0x0a, 0x04, 0x08,
  0x06, 0xfa, 0x0d, 0xe3, 0x17, 0x10, 0x07, 0x18, 0xd2, 0xa6, 0xfb, 0xf6,
  0xfb, 0xf9, 0xf3, 0x0e, 0xd7, 0x1d, 0x11, 0x05, 0xf0, 0xf6, 0xfa, 0x18,
  0x35, 0x28, 0x02, 0x02, 0x01, 0xc6, 0xe4, 0xcb, 0xde, 0xcb, 0x09, 0x02,
  0xc6, 0x12, 0x03, 0xf5, 0x05, 0x0a, 0x03, 0xe7, 0x0a, 0x0e, 0xf3, 0x11,
  0x1a, 0x11, 0xc9, 0xf1, 0x0f, 0xc4, 0x0b, 0x08, 0x10, 0xe0, 0x00, 0xfa,
  0x05, 0xfc, 0x04, 0xfb, 0xfb, 0xcb, 0xfa, 0x01, 0x14, 0xb5, 0x2b, 0xd8,
  0x09, 0x96, 0x03, 0xf1, 0x16, 0x14, 0x06, 0x16, 0xfc, 0x17, 0x11, 0xcf,
  0x22, 0x0a, 0xfc, 0xff, 0xee, 0xf2, 0x20, 0x0f, 0x00, 0x18, 0xfc, 0xfd,
  0xff, 0x12, 0xfb, 0xf4, 0xff, 0xf4, 0x08, 0x16, 0xf6, 0x1e, 0x0c, 0x04,
  0x1b, 0x21, 0x03, 0x38, 0x0f, 0x0d, 0x0f, 0xf9, 0xfe, 0x01, 0x0d, 0x06,
  0x07, 0x38, 0xf0, 0x15, 0x0c, 0x06, 0x05, 0xff, 0xf4, 0x11, 0xf8, 0x04,
  0xfa, 0x00, 0xf3, 0xfd, 0xdd, 0xc5, 0xe9, 0x0a, 0x0b, 0xf6, 0x0a, 0xff,
  0x13, 0xed, 0x0e, 0xf4, 0x16, 0x01, 0x21, 0x00, 0xfd, 0x05, 0x02, 0xfc,
  0xdc, 0x15, 0x0f, 0x19, 0xfe, 0x01, 0xee, 0xf1, 0x25, 0xfe, 0x05, 0xcf,
  0x06, 0x0f, 0x1b, 0x0e, 0xf2, 0x12, 0xf4, 0xdf, 0x01, 0xf9, 0x0e, 0xfd,
  0xfe, 0x0f, 0x0f, 0x03, 0x3a, 0xe8, 0xf3, 0x02, 0xd1, 0x03, 0xde, 0xe8,
  0x01, 0x01, 0x03, 0x0e, 0x06, 0x08, 0xfa, 0xf2, 0x04, 0xdb, 0x0d, 0x01,
  0xf8, 0xfa, 0x0a, 0x1d, 0x05, 0x06, 0x04, 0x07, 0xf6, 0xfe, 0x06, 0x14,
  0x0a, 0x26, 0xf1, 0xf3, 0xff, 0xf4, 0xfe, 0x0c, 0xc3, 0x1c, 0x00, 0xf7,
  0x06, 0xeb, 0x00, 0xe7, 0xe1, 0xf9, 0x0a, 0x0b, 0xf9, 0xbf, 0x05, 0xc9,
  0x0e, 0x13, 0xea, 0xff, 0xd8, 0x0d, 0x0c, 0xf5, 0xfc, 0xfd, 0xfa, 0x0a,
  0xfc, 0xf6, 0x0a, 0xf0, 0xf7, 0x0d, 0x02, 0x02, 0xf7, 0x0e, 0xf3, 0x08,
  0x49, 0x15, 0xfe, 0xfa, 0xfb, 0x11, 0x1e, 0x63, 0x01, 0x16, 0x01, 0x07,
  0xf6, 0x3f, 0x08, 0x28, 0xfc, 0xf6, 0x20, 0x03, 0x3a, 0xf8, 0x0a, 0x05,
  0x0b, 0xf9, 0xe3, 0x04, 0xf2, 0xf4, 0xf5, 0x03, 0x17, 0xac, 0x02, 0xf8,
  0xff, 0xf7, 0x05, 0xed, 0xf9, 0xbc, 0xf2, 0x0c, 0xfb, 0x0d, 0x00, 0xdc,
  0x15, 0x06, 0xfb, 0xff, 0x29, 0x17, 0xf5, 0x1e, 0x08, 0x04, 0x04, 0x0f,
  0x14, 0xf4, 0xfc, 0x01, 0xfa, 0x02, 0xff, 0xf6, 0xf7, 0x0a, 0xf3, 0x03,
  0x06, 0x04, 0xff, 0x0b, 0x07, 0xfe, 0xf2, 0xf9, 0x2c, 0x3d, 0xfa, 0xf7,
  0xf9, 0xee, 0x09, 0xec, 0xfb, 0xf1, 0x0b, 0xfa, 0x1f, 0x4f, 0x01, 0x39,
  0x04, 0x17, 0x15, 0xf0, 0x30, 0xf9, 0x04, 0x04, 0xf7, 0xf7, 0xeb, 0x07,
  0x0b, 0xf3, 0x05, 0x01, 0xc8, 0x26, 0xf1, 0x03, 0xe3, 0xf2, 0xf4, 0xfe,
  0xdd, 0x4a, 0xfb, 0xf4, 0x08, 0x0c, 0xd5, 0x35, 0x0c, 0x10, 0x00, 0x0e,
  0xd6, 0xc0, 0xf4, 0xde, 0x0f, 0x0e, 0xf8, 0x06, 0xdc, 0x01, 0x0a, 0xf6,
  0x19, 0x16, 0xf6, 0xfa, 0xf9, 0xf7, 0x0c, 0xf9, 0x11, 0xcf, 0x0c, 0x0d,
  0x0a, 0x0b, 0xfc, 0xfa, 0x08, 0xcb, 0x01, 0x05, 0x18, 0xa6, 0x2d, 0xf3,
  0xf1, 0x81, 0xfb, 0x0e, 0x01, 0x13, 0x07, 0x1c, 0xf3, 0x02, 0x10, 0xbd,
  0x0e, 0x06, 0xfa, 0xfe, 0xf8, 0xf3, 0x11, 0xf8, 0xfe, 0x1e, 0xfd, 0x0b,
  0xe5, 0x0c, 0xf0, 0x06, 0xfa, 0x04, 0x0e, 0xf1, 0xef, 0x22, 0xf7, 0xff,
  0x08, 0xdf, 0x05, 0xc2, 0xdc, 0xe5, 0xfe, 0x0b, 0xed, 0xdc, 0x0d, 0xe1,
  0x05, 0x03, 0xef, 0xe4, 0xcf, 0x06, 0xfd, 0xb5, 0x2f, 0x1b, 0x25, 0xfe,
  0xfd, 0x18, 0xf6, 0xe5, 0xce, 0xfe, 0xff, 0xff, 0x04, 0x00, 0x00, 0x00,
  0x50, 0x00, 0x00, 0x00, 0xf4, 0x01, 0x00, 0x00, 0xd9, 0xff, 0xff, 0xff,
  0x4d, 0x01, 0x00, 0x00, 0xd8, 0x03, 0x00, 0x00, 0x81, 0xff, 0xff, 0xff,
  0x66, 0x05, 0x00, 0x00, 0x8d, 0xfd, 0xff, 0xff, 0x20, 0x04, 0x00, 0x00,
  0xce, 0x02, 0x00, 0x00, 0xdc, 0xf9, 0xff, 0xff, 0x5b, 0xfa, 0xff, 0xff,
  0xb8, 0xf7, 0xff, 0xff, 0x68, 0xff, 0xff, 0xff, 0x46, 0xff, 0xff, 0xff,
  0x5f, 0xf8, 0xff, 0xff, 0x4e, 0x01, 0x00, 0x00, 0x58, 0xfc, 0xff, 0xff,
  0x29, 0xf5, 0xff, 0xff, 0xc2, 0x01, 0x00, 0x00, 0xeb, 0xfc, 0xff, 0xff,
  0x2a, 0xff, 0xff, 0xff, 0x04, 0x00, 0x00, 0x00, 0xc8, 0x00, 0x00, 0x00,
  0x0e, 0x01, 0xf6, 0xb6, 0x35, 0xad, 0xb9, 0x14, 0xfa, 0xf9, 0x0d, 0xc9,
  0xc1, 0x18, 0xb5, 0xcc, 0xeb, 0xbb, 0xf9, 0xe6, 0x0e, 0x07, 0x94, 0x1e,
  0xe5, 0x17, 0xb9, 0xd6, 0xe4, 0xd5, 0xf9, 0xf1, 0x04, 0xcd, 0x07, 0x04,
  0xff, 0xca, 0xcc, 0xfa, 0xb8, 0xd3, 0x07, 0xe9, 0x38, 0xc3, 0x07, 0xfe,
  0xaf, 0x0f, 0x8c, 0xb8, 0x06, 0xe7, 0xcb, 0x08, 0xe6, 0xe2, 0x12, 0xcc,
  0xda, 0x04, 0x06, 0xb3, 0xd0, 0x10, 0x05, 0xd7, 0xc3, 0xd5, 0xf5, 0xb4,
  0x0e, 0xd9, 0xd9, 0x12, 0xa6, 0xd5, 0xe2, 0xdb, 0xfe, 0xa2, 0x03, 0xb1,
  0xc8, 0x17, 0xd0, 0x0d, 0xc9, 0x0d, 0x9c, 0xd0, 0x00, 0xf2, 0x07, 0x0c,
  0x0f, 0xe0, 0x0e, 0xe4, 0xe7, 0x07, 0xf0, 0xe5, 0xa4, 0x07, 0x0a, 0xe8,
  0xdd, 0xef, 0x0d, 0xd1, 0xf4, 0xc3, 0x14, 0xd9, 0x8b, 0x1b, 0xdb, 0xeb,
  0x08, 0xdf, 0x81, 0x09, 0xe1, 0xe2, 0xa7, 0x09, 0x0e, 0x0e, 0x0f, 0x1d,
  0xda, 0xe6, 0x04, 0xe6, 0x09, 0xe5, 0x03, 0xe0, 0xe6, 0xf3, 0x99, 0x2d,
  0xfa, 0xb7, 0x05, 0xe1, 0x16, 0xdc, 0x03, 0xdc, 0x99, 0x22, 0xd3, 0xc9,
  0x02, 0x06, 0xb1, 0x1b, 0xe9, 0x19, 0xf9, 0xc8, 0xdb, 0xd3, 0xd1, 0xe7,
  0xf6, 0x0b, 0xe7, 0x2d, 0xe3, 0xdb, 0xdf, 0xce, 0xc6, 0xc9, 0x10, 0x31,
  0x01, 0xbe, 0x00, 0xda, 0xe8, 0xd2, 0x0d, 0x10, 0x21, 0xb6, 0xeb, 0xa7,
  0x13, 0xd3, 0x04, 0xd1, 0xff, 0xdb, 0xf2, 0xbe, 0x00, 0x00, 0x06, 0x00,
  0x08, 0x00, 0x04, 0x00, 0x06, 0x00, 0x00, 0x00, 0x04, 0x00, 0x00, 0x00,
  0x28, 0x00, 0x00, 0x00, 0x89, 0x07, 0x00, 0x00, 0xff, 0x02, 0x00, 0x00,
  0x76, 0x05, 0x00, 0x00, 0xff, 0x09, 0x00, 0x00, 0xd4, 0xfd, 0xff, 0xff,
  0x48, 0x01, 0x00, 0x00, 0x29, 0xfa, 0xff, 0xff, 0xc6, 0x02, 0x00, 0x00,
  0xe1, 0x06, 0x00, 0x00, 0x6c, 0x04, 0x00, 0x00, 0xfc, 0xff, 0xff, 0xff,
  0x04, 0x00, 0x04, 0x00, 0x04, 0x00, 0x00, 0x00, 0x0f, 0x00, 0x00, 0x00,
  0x4d, 0x4c, 0x49, 0x52, 0x20, 0x43, 0x6f, 0x6e, 0x76, 0x65, 0x72, 0x74,
  0x65, 0x64, 0x2e, 0x00, 0x01, 0x00, 0x00, 0x00, 0x14, 0x00, 0x00, 0x00,
  0x00, 0x00, 0x0e, 0x00, 0x18, 0x00, 0x14, 0x00, 0x10, 0x00, 0x0c, 0x00,
  0x08, 0x00, 0x04, 0x00, 0x0e, 0x00, 0x00, 0x00, 0x14, 0x00, 0x00, 0x00,
  0x1c, 0x00, 0x00, 0x00, 0xdc, 0x00, 0x00, 0x00, 0xe0, 0x00, 0x00, 0x00,
  0xe4, 0x00, 0x00, 0x00, 0x04, 0x00, 0x00, 0x00, 0x6d, 0x61, 0x69, 0x6e,
  0x00, 0x00, 0x00, 0x00, 0x03, 0x00, 0x00, 0x00, 0x84, 0x00, 0x00, 0x00,
  0x3c, 0x00, 0x00, 0x00, 0x04, 0x00, 0x00, 0x00, 0x96, 0xff, 0xff, 0xff,
  0x10, 0x00, 0x00, 0x00, 0x00, 0x00, 0x00, 0x08, 0x10, 0x00, 0x00, 0x00,
  0x14, 0x00, 0x00, 0x00, 0x86, 0xff, 0xff, 0xff, 0x00, 0x00, 0x00, 0x01,
  0x01, 0x00, 0x00, 0x00, 0x09, 0x00, 0x00, 0x00, 0x03, 0x00, 0x00, 0x00,
  0x08, 0x00, 0x00, 0x00, 0x02, 0x00, 0x00, 0x00, 0x01, 0x00, 0x00, 0x00,
  0xca, 0xff, 0xff, 0xff, 0x10, 0x00, 0x00, 0x00, 0x00, 0x00, 0x00, 0x08,
  0x10, 0x00, 0x00, 0x00, 0x14, 0x00, 0x00, 0x00, 0xba, 0xff, 0xff, 0xff,
  0x00, 0x00, 0x00, 0x01, 0x01, 0x00, 0x00, 0x00, 0x08, 0x00, 0x00, 0x00,
  0x03, 0x00, 0x00, 0x00, 0x07, 0x00, 0x00, 0x00, 0x04, 0x00, 0x00, 0x00,
  0x03, 0x00, 0x00, 0x00, 0x00, 0x00, 0x0e, 0x00, 0x16, 0x00, 0x00, 0x00,
  0x10, 0x00, 0x0c, 0x00, 0x0b, 0x00, 0x04, 0x00, 0x0e, 0x00, 0x00, 0x00,
  0x18, 0x00, 0x00, 0x00, 0x00, 0x00, 0x00, 0x08, 0x18, 0x00, 0x00, 0x00,
  0x1c, 0x00, 0x00, 0x00, 0x00, 0x00, 0x06, 0x00, 0x08, 0x00, 0x07, 0x00,
  0x06, 0x00, 0x00, 0x00, 0x00, 0x00, 0x00, 0x01, 0x01, 0x00, 0x00, 0x00,
  0x07, 0x00, 0x00, 0x00, 0x03, 0x00, 0x00, 0x00, 0x00, 0x00, 0x00, 0x00,
  0x06, 0x00, 0x00, 0x00, 0x05, 0x00, 0x00, 0x00, 0x01, 0x00, 0x00, 0x00,
  0x09, 0x00, 0x00, 0x00, 0x01, 0x00, 0x00, 0x00, 0x00, 0x00, 0x00, 0x00,
  0x0a, 0x00, 0x00, 0x00, 0x0c, 0x05, 0x00, 0x00, 0x74, 0x04, 0x00, 0x00,
  0xe8, 0x03, 0x00, 0x00, 0x6c, 0x03, 0x00, 0x00, 0xf8, 0x02, 0x00, 0x00,
  0x7c, 0x02, 0x00, 0x00, 0x08, 0x02, 0x00, 0x00, 0x44, 0x01, 0x00, 0x00,
  0x80, 0x00, 0x00, 0x00, 0x04, 0x00, 0x00, 0x00, 0x32, 0xfb, 0xff, 0xff,
  0x00, 0x00, 0x00, 0x01, 0x18, 0x00, 0x00, 0x00, 0x20, 0x00, 0x00, 0x00,
  0x3c, 0x00, 0x00, 0x00, 0x0a, 0x00, 0x00, 0x00, 0x00, 0x00, 0x00, 0x09,
  0x50, 0x00, 0x00, 0x00, 0x02, 0x00, 0x00, 0x00, 0xff, 0xff, 0xff, 0xff,
  0x0a, 0x00, 0x00, 0x00, 0x1c, 0xfb, 0xff, 0xff, 0x08, 0x00, 0x00, 0x00,
  0x10, 0x00, 0x00, 0x00, 0x01, 0x00, 0x00, 0x00, 0x80, 0xff, 0xff, 0xff,
  0xff, 0xff, 0xff, 0xff, 0x01, 0x00, 0x00, 0x00, 0x71, 0x5b, 0x23, 0x3c,
  0x19, 0x00, 0x00, 0x00, 0x53, 0x74, 0x61, 0x74, 0x65, 0x66, 0x75, 0x6c,
  0x50, 0x61, 0x72, 0x74, 0x69, 0x74, 0x69, 0x6f, 0x6e, 0x65, 0x64, 0x43,
  0x61, 0x6c, 0x6c, 0x3a, 0x30, 0x00, 0x00, 0x00, 0x02, 0x00, 0x00, 0x00,
  0x01, 0x00, 0x00, 0x00, 0x0a, 0x00, 0x00, 0x00, 0xaa, 0xfb, 0xff, 0xff,
  0x00, 0x00, 0x00, 0x01, 0x18, 0x00, 0x00, 0x00, 0x20, 0x00, 0x00, 0x00,
  0x40, 0x00, 0x00, 0x00, 0x09, 0x00, 0x00, 0x00, 0x00, 0x00, 0x00, 0x09,
  0x98, 0x00, 0x00, 0x00, 0x02, 0x00, 0x00, 0x00, 0xff, 0xff, 0xff, 0xff,
  0x14, 0x00, 0x00, 0x00, 0x94, 0xfb, 0xff, 0xff, 0x08, 0x00, 0x00, 0x00,
  0x14, 0x00, 0x00, 0x00, 0x01, 0x00, 0x00, 0x00, 0x80, 0xff, 0xff, 0xff,
  0xff, 0xff, 0xff, 0xff, 0x00, 0x00, 0x00, 0x00, 0x01, 0x00, 0x00, 0x00,
  0x4a, 0x4e, 0xea, 0x3b, 0x5e, 0x00, 0x00, 0x00, 0x73, 0x65, 0x71, 0x75,
  0x65, 0x6e, 0x74, 0x69, 0x61, 0x6c, 0x5f, 0x31, 0x30, 0x35, 0x2f, 0x64,
  0x65, 0x6e, 0x73, 0x65, 0x5f, 0x33, 0x31, 0x36, 0x2f, 0x4d, 0x61, 0x74,
  0x4d, 0x75, 0x6c, 0x3b, 0x73, 0x65, 0x71, 0x75, 0x65, 0x6e, 0x74, 0x69,
  0x61, 0x6c, 0x5f, 0x31, 0x30, 0x35, 0x2f, 0x64, 0x65, 0x6e, 0x73, 0x65,
  0x5f, 0x33, 0x31, 0x36, 0x2f, 0x52, 0x65, 0x6c, 0x75, 0x3b, 0x73, 0x65,
  0x71, 0x75, 0x65, 0x6e, 0x74, 0x69, 0x61, 0x6c, 0x5f, 0x31, 0x30, 0x35,
  0x2f, 0x64, 0x65, 0x6e, 0x73, 0x65, 0x5f, 0x33, 0x31, 0x36, 0x2f, 0x42,
  0x69, 0x61, 0x73, 0x41, 0x64, 0x64, 0x00, 0x00, 0x02, 0x00, 0x00, 0x00,
  0x01, 0x00, 0x00, 0x00, 0x14, 0x00, 0x00, 0x00, 0x6a, 0xfc, 0xff, 0xff,
  0x00, 0x00, 0x00, 0x01, 0x18, 0x00, 0x00, 0x00, 0x20, 0x00, 0x00, 0x00,
  0x40, 0x00, 0x00, 0x00, 0x08, 0x00, 0x00, 0x00, 0x00, 0x00, 0x00, 0x09,
  0x98, 0x00, 0x00, 0x00, 0x02, 0x00, 0x00, 0x00, 0xff, 0xff, 0xff, 0xff,
  0x28, 0x00, 0x00, 0x00, 0x54, 0xfc, 0xff, 0xff, 0x08, 0x00, 0x00, 0x00,
  0x14, 0x00, 0x00, 0x00, 0x01, 0x00, 0x00, 0x00, 0x80, 0xff, 0xff, 0xff,
  0xff, 0xff, 0xff, 0xff, 0x00, 0x00, 0x00, 0x00, 0x01, 0x00, 0x00, 0x00,
  0xa6, 0x67, 0x24, 0x3b, 0x5e, 0x00, 0x00, 0x00, 0x73, 0x65, 0x71, 0x75,
  0x65, 0x6e, 0x74, 0x69, 0x61, 0x6c, 0x5f, 0x31, 0x30, 0x35, 0x2f, 0x64,
  0x65, 0x6e, 0x73, 0x65, 0x5f, 0x33, 0x31, 0x35, 0x2f, 0x4d, 0x61, 0x74,
  0x4d, 0x75, 0x6c, 0x3b, 0x73, 0x65, 0x71, 0x75, 0x65, 0x6e, 0x74, 0x69,
  0x61, 0x6c, 0x5f, 0x31, 0x30, 0x35, 0x2f, 0x64, 0x65, 0x6e, 0x73, 0x65,
  0x5f, 0x33, 0x31, 0x35, 0x2f, 0x52, 0x65, 0x6c, 0x75, 0x3b, 0x73, 0x65,
  0x71, 0x75, 0x65, 0x6e, 0x74, 0x69, 0x61, 0x6c, 0x5f, 0x31, 0x30, 0x35,
  0x2f, 0x64, 0x65, 0x6e, 0x73, 0x65, 0x5f, 0x33, 0x31, 0x35, 0x2f, 0x42,
  0x69, 0x61, 0x73, 0x41, 0x64, 0x64, 0x00, 0x00, 0x02, 0x00, 0x00, 0x00,
  0x01, 0x00, 0x00, 0x00, 0x28, 0x00, 0x00, 0x00, 0xbe, 0xfd, 0xff, 0xff,
  0x00, 0x00, 0x00, 0x01, 0x14, 0x00, 0x00, 0x00, 0x34, 0x00, 0x00, 0x00,
  0x07, 0x00, 0x00, 0x00, 0x00, 0x00, 0x00, 0x09, 0x4c, 0x00, 0x00, 0x00,
  0x04, 0xfd, 0xff, 0xff, 0x08, 0x00, 0x00, 0x00, 0x14, 0x00, 0x00, 0x00,
  0x01, 0x00, 0x00, 0x00, 0x00, 0x00, 0x00, 0x00, 0x00, 0x00, 0x00, 0x00,
  0x00, 0x00, 0x00, 0x00, 0x01, 0x00, 0x00, 0x00, 0xda, 0xaf, 0x10, 0x3c,
  0x1f, 0x00, 0x00, 0x00, 0x73, 0x65, 0x71, 0x75, 0x65, 0x6e, 0x74, 0x69,
  0x61, 0x6c, 0x5f, 0x31, 0x30, 0x35, 0x2f, 0x64, 0x65, 0x6e, 0x73, 0x65,
  0x5f, 0x33, 0x31, 0x35, 0x2f, 0x4d, 0x61, 0x74, 0x4d, 0x75, 0x6c, 0x00,
  0x02, 0x00, 0x00, 0x00, 0x28, 0x00, 0x00, 0x00, 0x04, 0x00, 0x00, 0x00,
  0x2e, 0xfe, 0xff, 0xff, 0x00, 0x00, 0x00, 0x01, 0x14, 0x00, 0x00, 0x00,
  0x30, 0x00, 0x00, 0x00, 0x06, 0x00, 0x00, 0x00, 0x00, 0x00, 0x00, 0x02,
  0x58, 0x00, 0x00, 0x00, 0x74, 0xfd, 0xff, 0xff, 0x08, 0x00, 0x00, 0x00,
  0x10, 0x00, 0x00, 0x00, 0x01, 0x00, 0x00, 0x00, 0x00, 0x00, 0x00, 0x00,
  0x00, 0x00, 0x00, 0x00, 0x01, 0x00, 0x00, 0x00, 0xec, 0x01, 0x10, 0x38,
  0x2f, 0x00, 0x00, 0x00, 0x73, 0x65, 0x71, 0x75, 0x65, 0x6e, 0x74, 0x69,
  0x61, 0x6c, 0x5f, 0x31, 0x30, 0x35, 0x2f, 0x64, 0x65, 0x6e, 0x73, 0x65,
  0x5f, 0x33, 0x31, 0x35, 0x2f, 0x42, 0x69, 0x61, 0x73, 0x41, 0x64, 0x64,
  0x2f, 0x52, 0x65, 0x61, 0x64, 0x56, 0x61, 0x72, 0x69, 0x61, 0x62, 0x6c,
  0x65, 0x4f, 0x70, 0x00, 0x01, 0x00, 0x00, 0x00, 0x28, 0x00, 0x00, 0x00,
  0xa6, 0xfe, 0xff, 0xff, 0x00, 0x00, 0x00, 0x01, 0x14, 0x00, 0x00, 0x00,
  0x34, 0x00, 0x00, 0x00, 0x05, 0x00, 0x00, 0x00, 0x00, 0x00, 0x00, 0x09,
  0x4c, 0x00, 0x00, 0x00, 0xec, 0xfd, 0xff, 0xff, 0x08, 0x00, 0x00, 0x00,
  0x14, 0x00, 0x00, 0x00, 0x01, 0x00, 0x00, 0x00, 0x00, 0x00, 0x00, 0x00,
  0x00, 0x00, 0x00, 0x00, 0x00, 0x00, 0x00, 0x00, 0x01, 0x00, 0x00, 0x00,
  0x9f, 0xad, 0xa6, 0x3c, 0x1f, 0x00, 0x00, 0x00, 0x73, 0x65, 0x71, 0x75,
  0x65, 0x6e, 0x74, 0x69, 0x61, 0x6c, 0x5f, 0x31, 0x30, 0x35, 0x2f, 0x64,
  0x65, 0x6e, 0x73, 0x65, 0x5f, 0x33, 0x31, 0x36, 0x2f, 0x4d, 0x61, 0x74,
  0x4d, 0x75, 0x6c, 0x00, 0x02, 0x00, 0x00, 0x00, 0x14, 0x00, 0x00, 0x00,
  0x28, 0x00, 0x00, 0x00, 0x16, 0xff, 0xff, 0xff, 0x00, 0x00, 0x00, 0x01,
  0x14, 0x00, 0x00, 0x00, 0x30, 0x00, 0x00, 0x00, 0x04, 0x00, 0x00, 0x00,
  0x00, 0x00, 0x00, 0x02, 0x58, 0x00, 0x00, 0x00, 0x5c, 0xfe, 0xff, 0xff,
  0x08, 0x00, 0x00, 0x00, 0x10, 0x00, 0x00, 0x00, 0x01, 0x00, 0x00, 0x00,
  0x00, 0x00, 0x00, 0x00, 0x00, 0x00, 0x00, 0x00, 0x01, 0x00, 0x00, 0x00,
  0x6c, 0x15, 0x56, 0x38, 0x2f, 0x00, 0x00, 0x00, 0x73, 0x65, 0x71, 0x75,
  0x65, 0x6e, 0x74, 0x69, 0x61, 0x6c, 0x5f, 0x31, 0x30, 0x35, 0x2f, 0x64,
  0x65, 0x6e, 0x73, 0x65, 0x5f, 0x33, 0x31, 0x36, 0x2f, 0x42, 0x69, 0x61,
  0x73, 0x41, 0x64, 0x64, 0x2f, 0x52, 0x65, 0x61, 0x64, 0x56, 0x61, 0x72,
  0x69, 0x61, 0x62, 0x6c, 0x65, 0x4f, 0x70, 0x00, 0x01, 0x00, 0x00, 0x00,
  0x14, 0x00, 0x00, 0x00, 0x8e, 0xff, 0xff, 0xff, 0x00, 0x00, 0x00, 0x01,
  0x14, 0x00, 0x00, 0x00, 0x34, 0x00, 0x00, 0x00, 0x03, 0x00, 0x00, 0x00,
  0x00, 0x00, 0x00, 0x09, 0x4c, 0x00, 0x00, 0x00, 0xd4, 0xfe, 0xff, 0xff,
  0x08, 0x00, 0x00, 0x00, 0x14, 0x00, 0x00, 0x00, 0x01, 0x00, 0x00, 0x00,
  0x00, 0x00, 0x00, 0x00, 0x00, 0x00, 0x00, 0x00, 0x00, 0x00, 0x00, 0x00,
  0x01, 0x00, 0x00, 0x00, 0xbd, 0x04, 0xce, 0x3c, 0x1f, 0x00, 0x00, 0x00,
  0x73, 0x65, 0x71, 0x75, 0x65, 0x6e, 0x74, 0x69, 0x61, 0x6c, 0x5f, 0x31,
  0x30, 0x35, 0x2f, 0x64, 0x65, 0x6e, 0x73, 0x65, 0x5f, 0x33, 0x31, 0x37,
  0x2f, 0x4d, 0x61, 0x74, 0x4d, 0x75, 0x6c, 0x00, 0x02, 0x00, 0x00, 0x00,
  0x0a, 0x00, 0x00, 0x00, 0x14, 0x00, 0x00, 0x00, 0x00, 0x00, 0x16, 0x00,
  0x1c, 0x00, 0x18, 0x00, 0x17, 0x00, 0x10, 0x00, 0x0c, 0x00, 0x08, 0x00,
  0x00, 0x00, 0x00, 0x00, 0x00, 0x00, 0x07, 0x00, 0x16, 0x00, 0x00, 0x00,
  0x00, 0x00, 0x00, 0x01, 0x14, 0x00, 0x00, 0x00, 0x34, 0x00, 0x00, 0x00,
  0x02, 0x00, 0x00, 0x00, 0x00, 0x00, 0x00, 0x02, 0x5c, 0x00, 0x00, 0x00,
  0x5c, 0xff, 0xff, 0xff, 0x08, 0x00, 0x00, 0x00, 0x14, 0x00, 0x00, 0x00,
  0x01, 0x00, 0x00, 0x00, 0x00, 0x00, 0x00, 0x00, 0x00, 0x00, 0x00, 0x00,
  0x00, 0x00, 0x00, 0x00, 0x01, 0x00, 0x00, 0x00, 0x56, 0x8f, 0x3c, 0x39,
  0x2f, 0x00, 0x00, 0x00, 0x73, 0x65, 0x71, 0x75, 0x65, 0x6e, 0x74, 0x69,
  0x61, 0x6c, 0x5f, 0x31, 0x30, 0x35, 0x2f, 0x64, 0x65, 0x6e, 0x73, 0x65,
  0x5f, 0x33, 0x31, 0x37, 0x2f, 0x42, 0x69, 0x61, 0x73, 0x41, 0x64, 0x64,
  0x2f, 0x52, 0x65, 0x61, 0x64, 0x56, 0x61, 0x72, 0x69, 0x61, 0x62, 0x6c,
  0x65, 0x4f, 0x70, 0x00, 0x01, 0x00, 0x00, 0x00, 0x0a, 0x00, 0x00, 0x00,
  0x00, 0x00, 0x16, 0x00, 0x20, 0x00, 0x1c, 0x00, 0x1b, 0x00, 0x14, 0x00,
  0x10, 0x00, 0x0c, 0x00, 0x00, 0x00, 0x00, 0x00, 0x08, 0x00, 0x07, 0x00,
  0x16, 0x00, 0x00, 0x00, 0x00, 0x00, 0x00, 0x01, 0x18, 0x00, 0x00, 0x00,
  0x2c, 0x00, 0x00, 0x00, 0x48, 0x00, 0x00, 0x00, 0x01, 0x00, 0x00, 0x00,
  0x00, 0x00, 0x00, 0x09, 0x64, 0x00, 0x00, 0x00, 0x02, 0x00, 0x00, 0x00,
  0xff, 0xff, 0xff, 0xff, 0x04, 0x00, 0x00, 0x00, 0x0c, 0x00, 0x0c, 0x00,
  0x00, 0x00, 0x00, 0x00, 0x08, 0x00, 0x04, 0x00, 0x0c, 0x00, 0x00, 0x00,
  0x08, 0x00, 0x00, 0x00, 0x10, 0x00, 0x00, 0x00, 0x01, 0x00, 0x00, 0x00,
  0x80, 0xff, 0xff, 0xff, 0xff, 0xff, 0xff, 0xff, 0x01, 0x00, 0x00, 0x00,
  0x42, 0xcc, 0x7e, 0x3b, 0x21, 0x00, 0x00, 0x00, 0x73, 0x65, 0x72, 0x76,
  0x69, 0x6e, 0x67, 0x5f, 0x64, 0x65, 0x66, 0x61, 0x75, 0x6c, 0x74, 0x5f,
  0x64, 0x65, 0x6e, 0x73, 0x65, 0x5f, 0x33, 0x31, 0x35, 0x5f, 0x69, 0x6e,
  0x70, 0x75, 0x74, 0x3a, 0x30, 0x00, 0x00, 0x00, 0x02, 0x00, 0x00, 0x00,
  0x01, 0x00, 0x00, 0x00, 0x04, 0x00, 0x00, 0x00, 0x01, 0x00, 0x00, 0x00,
  0x10, 0x00, 0x00, 0x00, 0x0c, 0x00, 0x10, 0x00, 0x0f, 0x00, 0x00, 0x00,
  0x08, 0x00, 0x04, 0x00, 0x0c, 0x00, 0x00, 0x00, 0x09, 0x00, 0x00, 0x00,
  0x04, 0x00, 0x00, 0x00, 0x00, 0x00, 0x00, 0x09
};
unsigned int modelo_tflite_len = 3776;
